/* Copyright 2020 The TensorFlow Authors. All Rights Reserved.

Licensed under the Apache License, Version 2.0 (the "License");
you may not use this file except in compliance with the License.
You may obtain a copy of the License at

    http://www.apache.org/licenses/LICENSE-2.0

Unless required by applicable law or agreed to in writing, software
distributed under the License is distributed on an "AS IS" BASIS,
WITHOUT WARRANTIES OR CONDITIONS OF ANY KIND, either express or implied.
See the License for the specific language governing permissions and
limitations under the License.
==============================================================================*/

// Automatically created from a TensorFlow Lite flatbuffer using the command:
// xxd -i model.tflite > model.cc

// This is a standard TensorFlow Lite model file that has been converted into a
// C data array, so it can be easily compiled into a binary for devices that
// don't have a file system.

// See train/README.md for a full description of the creation process.

#include "model.h"

// Keep model aligned to 8 bytes to guarantee aligned 64-bit accesses.
alignas(8) const unsigned char g_model[] = {
  0x1c, 0x00, 0x00, 0x00, 0x54, 0x46, 0x4c, 0x33, 0x14, 0x00, 0x20, 0x00,
  0x1c, 0x00, 0x18, 0x00, 0x14, 0x00, 0x10, 0x00, 0x0c, 0x00, 0x00, 0x00,
  0x08, 0x00, 0x04, 0x00, 0x14, 0x00, 0x00, 0x00, 0x1c, 0x00, 0x00, 0x00,
  0x80, 0x00, 0x00, 0x00, 0xd8, 0x00, 0x00, 0x00, 0x34, 0x0b, 0x00, 0x00,
  0x44, 0x0b, 0x00, 0x00, 0xf4, 0x1c, 0x00, 0x00, 0x03, 0x00, 0x00, 0x00,
  0x01, 0x00, 0x00, 0x00, 0x04, 0x00, 0x00, 0x00, 0xc2, 0xf0, 0xff, 0xff,
  0x0c, 0x00, 0x00, 0x00, 0x1c, 0x00, 0x00, 0x00, 0x38, 0x00, 0x00, 0x00,
  0x0f, 0x00, 0x00, 0x00, 0x73, 0x65, 0x72, 0x76, 0x69, 0x6e, 0x67, 0x5f,
  0x64, 0x65, 0x66, 0x61, 0x75, 0x6c, 0x74, 0x00, 0x01, 0x00, 0x00, 0x00,
  0x04, 0x00, 0x00, 0x00, 0x9c, 0xff, 0xff, 0xff, 0x23, 0x00, 0x00, 0x00,
  0x04, 0x00, 0x00, 0x00, 0x06, 0x00, 0x00, 0x00, 0x6f, 0x75, 0x74, 0x70,
  0x75, 0x74, 0x00, 0x00, 0x01, 0x00, 0x00, 0x00, 0x04, 0x00, 0x00, 0x00,
  0x6a, 0xf5, 0xff, 0xff, 0x04, 0x00, 0x00, 0x00, 0x05, 0x00, 0x00, 0x00,
  0x69, 0x6e, 0x70, 0x75, 0x74, 0x00, 0x00, 0x00, 0x02, 0x00, 0x00, 0x00,
  0x34, 0x00, 0x00, 0x00, 0x04, 0x00, 0x00, 0x00, 0xdc, 0xff, 0xff, 0xff,
  0x26, 0x00, 0x00, 0x00, 0x04, 0x00, 0x00, 0x00, 0x13, 0x00, 0x00, 0x00,
  0x43, 0x4f, 0x4e, 0x56, 0x45, 0x52, 0x53, 0x49, 0x4f, 0x4e, 0x5f, 0x4d,
  0x45, 0x54, 0x41, 0x44, 0x41, 0x54, 0x41, 0x00, 0x08, 0x00, 0x0c, 0x00,
  0x08, 0x00, 0x04, 0x00, 0x08, 0x00, 0x00, 0x00, 0x25, 0x00, 0x00, 0x00,
  0x04, 0x00, 0x00, 0x00, 0x13, 0x00, 0x00, 0x00, 0x6d, 0x69, 0x6e, 0x5f,
  0x72, 0x75, 0x6e, 0x74, 0x69, 0x6d, 0x65, 0x5f, 0x76, 0x65, 0x72, 0x73,
  0x69, 0x6f, 0x6e, 0x00, 0x27, 0x00, 0x00, 0x00, 0x58, 0x0a, 0x00, 0x00,
  0x50, 0x0a, 0x00, 0x00, 0x20, 0x0a, 0x00, 0x00, 0xe8, 0x09, 0x00, 0x00,
  0xb8, 0x09, 0x00, 0x00, 0x9c, 0x09, 0x00, 0x00, 0x6c, 0x08, 0x00, 0x00,
  0x5c, 0x05, 0x00, 0x00, 0x4c, 0x02, 0x00, 0x00, 0x30, 0x02, 0x00, 0x00,
  0x14, 0x02, 0x00, 0x00, 0x00, 0x02, 0x00, 0x00, 0xd8, 0x01, 0x00, 0x00,
  0xc4, 0x01, 0x00, 0x00, 0xac, 0x01, 0x00, 0x00, 0x3c, 0x01, 0x00, 0x00,
  0x34, 0x01, 0x00, 0x00, 0x2c, 0x01, 0x00, 0x00, 0x24, 0x01, 0x00, 0x00,
  0x1c, 0x01, 0x00, 0x00, 0x14, 0x01, 0x00, 0x00, 0x0c, 0x01, 0x00, 0x00,
  0x04, 0x01, 0x00, 0x00, 0xfc, 0x00, 0x00, 0x00, 0xf4, 0x00, 0x00, 0x00,
  0xec, 0x00, 0x00, 0x00, 0xe4, 0x00, 0x00, 0x00, 0xdc, 0x00, 0x00, 0x00,
  0xd4, 0x00, 0x00, 0x00, 0xcc, 0x00, 0x00, 0x00, 0xc4, 0x00, 0x00, 0x00,
  0xbc, 0x00, 0x00, 0x00, 0xb4, 0x00, 0x00, 0x00, 0xac, 0x00, 0x00, 0x00,
  0xa4, 0x00, 0x00, 0x00, 0x9c, 0x00, 0x00, 0x00, 0x94, 0x00, 0x00, 0x00,
  0x74, 0x00, 0x00, 0x00, 0x04, 0x00, 0x00, 0x00, 0x7a, 0xf6, 0xff, 0xff,
  0x04, 0x00, 0x00, 0x00, 0x60, 0x00, 0x00, 0x00, 0x0c, 0x00, 0x00, 0x00,
  0x08, 0x00, 0x0e, 0x00, 0x08, 0x00, 0x04, 0x00, 0x08, 0x00, 0x00, 0x00,
  0x14, 0x00, 0x00, 0x00, 0x30, 0x00, 0x00, 0x00, 0x00, 0x00, 0x0a, 0x00,
  0x0c, 0x00, 0x08, 0x00, 0x00, 0x00, 0x07, 0x00, 0x0a, 0x00, 0x00, 0x00,
  0x00, 0x00, 0x00, 0x01, 0x04, 0x00, 0x00, 0x00, 0x01, 0x00, 0x00, 0x00,
  0xea, 0x03, 0x00, 0x00, 0x00, 0x00, 0x0a, 0x00, 0x10, 0x00, 0x0c, 0x00,
  0x08, 0x00, 0x04, 0x00, 0x0a, 0x00, 0x00, 0x00, 0x01, 0x00, 0x00, 0x00,
  0x02, 0x00, 0x00, 0x00, 0x04, 0x00, 0x00, 0x00, 0x06, 0x00, 0x00, 0x00,
  0x32, 0x2e, 0x31, 0x34, 0x2e, 0x30, 0x00, 0x00, 0xe6, 0xf6, 0xff, 0xff,
  0x04, 0x00, 0x00, 0x00, 0x10, 0x00, 0x00, 0x00, 0x31, 0x2e, 0x31, 0x30,
  0x2e, 0x30, 0x00, 0x00, 0x00, 0x00, 0x00, 0x00, 0x00, 0x00, 0x00, 0x00,
  0x34, 0xe5, 0xff, 0xff, 0x38, 0xe5, 0xff, 0xff, 0x3c, 0xe5, 0xff, 0xff,
  0x40, 0xe5, 0xff, 0xff, 0x44, 0xe5, 0xff, 0xff, 0x48, 0xe5, 0xff, 0xff,
  0x4c, 0xe5, 0xff, 0xff, 0x50, 0xe5, 0xff, 0xff, 0x54, 0xe5, 0xff, 0xff,
  0x58, 0xe5, 0xff, 0xff, 0x5c, 0xe5, 0xff, 0xff, 0x60, 0xe5, 0xff, 0xff,
  0x64, 0xe5, 0xff, 0xff, 0x68, 0xe5, 0xff, 0xff, 0x6c, 0xe5, 0xff, 0xff,
  0x70, 0xe5, 0xff, 0xff, 0x74, 0xe5, 0xff, 0xff, 0x78, 0xe5, 0xff, 0xff,
  0x7c, 0xe5, 0xff, 0xff, 0x80, 0xe5, 0xff, 0xff, 0x84, 0xe5, 0xff, 0xff,
  0x56, 0xf7, 0xff, 0xff, 0x04, 0x00, 0x00, 0x00, 0x60, 0x00, 0x00, 0x00,
  0x6e, 0x15, 0x14, 0x3f, 0x44, 0xe7, 0x79, 0xbf, 0xfb, 0xaa, 0x58, 0x3f,
  0xbe, 0x94, 0x57, 0xbf, 0x4c, 0x47, 0x40, 0xbe, 0x19, 0x8e, 0x7d, 0xbf,
  0x7d, 0x79, 0x80, 0xbf, 0x5c, 0x3b, 0x51, 0xbe, 0x0f, 0x35, 0x81, 0xbf,
  0xdd, 0xdb, 0x2c, 0x3d, 0x04, 0x95, 0xbd, 0xbe, 0x9b, 0x3d, 0x90, 0x3f,
  0x19, 0xd0, 0xa3, 0xbf, 0xf6, 0x2e, 0x33, 0x3f, 0xef, 0x39, 0x9a, 0x3f,
  0xe0, 0x54, 0x09, 0xbf, 0xb2, 0x7d, 0x75, 0x3e, 0xeb, 0x23, 0xa2, 0x3f,
  0x44, 0xa8, 0xa8, 0xbe, 0x10, 0x67, 0xdf, 0xbb, 0x06, 0xcc, 0xcb, 0x3f,
  0xe8, 0x62, 0x8b, 0xbe, 0xf5, 0x08, 0xd2, 0x3e, 0x03, 0xfc, 0xe0, 0x3e,
  0xc2, 0xf7, 0xff, 0xff, 0x04, 0x00, 0x00, 0x00, 0x08, 0x00, 0x00, 0x00,
  0xff, 0xff, 0xff, 0xff, 0x08, 0x00, 0x00, 0x00, 0xd6, 0xf7, 0xff, 0xff,
  0x04, 0x00, 0x00, 0x00, 0x04, 0x00, 0x00, 0x00, 0xfd, 0xff, 0xff, 0xff,
  0xe6, 0xf7, 0xff, 0xff, 0x04, 0x00, 0x00, 0x00, 0x18, 0x00, 0x00, 0x00,
  0x00, 0x00, 0x00, 0x00, 0x00, 0x00, 0x00, 0x00, 0x00, 0x00, 0x00, 0x00,
  0x00, 0x00, 0x00, 0x00, 0x01, 0x00, 0x00, 0x00, 0x01, 0x00, 0x00, 0x00,
  0x0a, 0xf8, 0xff, 0xff, 0x04, 0x00, 0x00, 0x00, 0x04, 0x00, 0x00, 0x00,
  0xff, 0xff, 0xff, 0xff, 0x1a, 0xf8, 0xff, 0xff, 0x04, 0x00, 0x00, 0x00,
  0x0c, 0x00, 0x00, 0x00, 0x37, 0x11, 0xb4, 0x3f, 0xdc, 0x2a, 0x09, 0xbe,
  0xac, 0x32, 0x53, 0xbf, 0x32, 0xf8, 0xff, 0xff, 0x04, 0x00, 0x00, 0x00,
  0x0c, 0x00, 0x00, 0x00, 0x00, 0x00, 0x00, 0x00, 0x02, 0x00, 0x00, 0x00,
  0x01, 0x00, 0x00, 0x00, 0x4a, 0xf8, 0xff, 0xff, 0x04, 0x00, 0x00, 0x00,
  0x00, 0x03, 0x00, 0x00, 0x03, 0xa8, 0x91, 0xbe, 0x09, 0x1f, 0x9d, 0x3d,
  0xe9, 0xb3, 0xdd, 0x3d, 0x53, 0x9c, 0xed, 0xbd, 0x06, 0x0e, 0x1b, 0xbf,
  0x99, 0x8d, 0x34, 0x3e, 0x8f, 0x20, 0xc6, 0xbd, 0xd0, 0x69, 0xc8, 0x3b,
  0x9e, 0xe7, 0x7b, 0xbe, 0x6f, 0x5d, 0x64, 0xbd, 0x5b, 0xa8, 0xf0, 0xbc,
  0x58, 0x58, 0x47, 0xbd, 0xa9, 0x3f, 0x0b, 0xbf, 0x18, 0x35, 0x12, 0x3e,
  0x33, 0x55, 0xd5, 0xbd, 0xc3, 0x50, 0x1c, 0xbe, 0xa2, 0xb3, 0x88, 0xbe,
  0xe9, 0x04, 0xf3, 0x3c, 0xda, 0xd7, 0x93, 0x3d, 0x20, 0xa3, 0x2a, 0xbd,
  0x01, 0x9e, 0x3e, 0xbf, 0xc9, 0x57, 0x7b, 0x3e, 0xbe, 0x76, 0x87, 0x3e,
  0x1d, 0xe9, 0x7a, 0xbe, 0x47, 0x19, 0xa4, 0x3c, 0x20, 0x54, 0x62, 0x3e,
  0xad, 0x27, 0x3e, 0xbd, 0x2f, 0xe9, 0x8f, 0xbc, 0xb0, 0x20, 0x69, 0xbd,
  0xc4, 0x5c, 0x04, 0xbe, 0x85, 0xa0, 0x96, 0x3d, 0x9b, 0xce, 0x81, 0x3e,
  0xbf, 0xbf, 0x44, 0x3d, 0x2a, 0x3a, 0x86, 0x3e, 0x47, 0x3e, 0x86, 0x3d,
  0x21, 0x56, 0xfa, 0x3c, 0x67, 0x09, 0x15, 0xbe, 0x55, 0x5d, 0x99, 0x3c,
  0x1a, 0xd4, 0x80, 0x3e, 0x68, 0xaf, 0x17, 0x3e, 0x50, 0x53, 0x0a, 0x3e,
  0x26, 0xd9, 0xd3, 0x3d, 0xf0, 0x1e, 0xb1, 0xbd, 0x98, 0x97, 0x43, 0x3d,
  0xc8, 0xfe, 0x26, 0xbe, 0x8e, 0x59, 0xa0, 0xbd, 0xae, 0x2a, 0x60, 0x3e,
  0xf4, 0x59, 0x9f, 0x3c, 0xf9, 0xbf, 0xbf, 0xbe, 0x74, 0xa2, 0x1c, 0xbd,
  0x8b, 0xd5, 0x88, 0xbe, 0x63, 0x36, 0xf0, 0xbd, 0xa5, 0x68, 0x44, 0xbd,
  0xc5, 0x72, 0x4d, 0x3e, 0xff, 0x14, 0x3b, 0xbe, 0x4b, 0x4f, 0xba, 0xbd,
  0xd3, 0xa2, 0x9b, 0xbe, 0x65, 0xb0, 0x7e, 0x3d, 0xf0, 0x52, 0xbb, 0xbe,
  0x11, 0x45, 0x97, 0xbd, 0x0b, 0x56, 0x80, 0xbe, 0xb8, 0xb5, 0x39, 0xbd,
  0xff, 0xb3, 0x53, 0xbe, 0x41, 0x8a, 0xaa, 0xbe, 0x99, 0x39, 0xd1, 0xbe,
  0xa0, 0x1a, 0x8a, 0xbc, 0xd8, 0x38, 0x2d, 0xbe, 0x20, 0x96, 0xd0, 0xbd,
  0xbe, 0x10, 0xae, 0xbd, 0x60, 0xe2, 0xd6, 0x3b, 0xb0, 0xcf, 0xd8, 0xbe,
  0xb6, 0xa0, 0x71, 0xbe, 0x02, 0xee, 0x8b, 0xbe, 0xce, 0xdc, 0x2e, 0xbe,
  0x30, 0x11, 0x9e, 0x3d, 0xd2, 0x3e, 0x9a, 0xbe, 0xa0, 0xed, 0x75, 0x3e,
  0x0b, 0x5d, 0x02, 0x3e, 0x59, 0x5d, 0xe6, 0x3c, 0x99, 0xc8, 0x6e, 0x3d,
  0x14, 0xfc, 0xa0, 0xbe, 0x04, 0x69, 0x52, 0xbe, 0x71, 0xbc, 0x8c, 0xbe,
  0x53, 0xa2, 0x64, 0xbe, 0x54, 0xcc, 0x9a, 0x3d, 0x33, 0x47, 0x30, 0xbc,
  0x6c, 0x00, 0x93, 0x3e, 0x4c, 0x39, 0x64, 0xbd, 0x55, 0xf2, 0xc1, 0x3d,
  0x1b, 0xec, 0x5b, 0xbe, 0x74, 0x4e, 0x06, 0x3e, 0x0e, 0x25, 0x47, 0xbe,
  0x85, 0x06, 0x4e, 0xbe, 0x3d, 0x43, 0x39, 0xbe, 0x9e, 0x0b, 0x8f, 0x3e,
  0x05, 0x9e, 0x64, 0xbe, 0x2d, 0x70, 0xbe, 0x3f, 0x9b, 0xa7, 0xaf, 0xbf,
  0xd7, 0x27, 0xa2, 0xbf, 0x11, 0x0f, 0x8d, 0x3d, 0x2d, 0xc2, 0xbd, 0x3f,
  0x24, 0xf9, 0x5d, 0xbf, 0xed, 0x54, 0x72, 0xbd, 0x42, 0xda, 0xb5, 0xbf,
  0x6d, 0xb2, 0xcd, 0xbe, 0x4e, 0x00, 0xa1, 0xbf, 0xc5, 0x22, 0x13, 0xbf,
  0xdb, 0x4c, 0x2d, 0x3e, 0xbf, 0xbb, 0x6f, 0x3e, 0xaa, 0x5d, 0xc2, 0xbe,
  0x4d, 0xf1, 0xa6, 0xbf, 0xcd, 0x7d, 0x11, 0xbf, 0x26, 0x3f, 0xa9, 0xbf,
  0x66, 0xab, 0x87, 0xbe, 0x52, 0x96, 0x8a, 0x3b, 0x43, 0x14, 0x96, 0xbf,
  0x5b, 0xe0, 0x31, 0xbf, 0xf9, 0xc6, 0x70, 0x3e, 0xaa, 0x4e, 0x0c, 0x3f,
  0x32, 0xdf, 0xaf, 0x3e, 0x3a, 0xe8, 0x58, 0xbe, 0x62, 0xbf, 0xd5, 0xbb,
  0xc2, 0xcb, 0xbb, 0x3e, 0x27, 0xd6, 0xf6, 0x3e, 0xd2, 0x90, 0x13, 0xbf,
  0xd8, 0xe8, 0x82, 0xbe, 0x33, 0xf1, 0x0e, 0xbf, 0x49, 0x0e, 0xbf, 0xbe,
  0xbc, 0x4a, 0x20, 0xbf, 0xe4, 0x63, 0xc6, 0xbc, 0xdd, 0x42, 0x24, 0x3d,
  0x02, 0x22, 0xd8, 0x3e, 0xee, 0x59, 0x2d, 0x3d, 0xd9, 0x9a, 0x8f, 0x3d,
  0x69, 0x1f, 0xdf, 0xbe, 0xfe, 0xe2, 0x1d, 0x3d, 0x8c, 0x7f, 0x32, 0xbf,
  0xce, 0xa4, 0xf3, 0x3c, 0x99, 0x98, 0x6a, 0xbe, 0x1f, 0x00, 0x08, 0x3e,
  0x04, 0x54, 0xdb, 0x3e, 0xf0, 0x09, 0x92, 0x3e, 0x2f, 0x77, 0x03, 0x3e,
  0x77, 0xd4, 0xeb, 0x3d, 0x66, 0x19, 0x7f, 0x3f, 0x20, 0xf6, 0xcd, 0xbe,
  0x4a, 0x8e, 0x66, 0x3e, 0x19, 0x3b, 0xec, 0x3e, 0xdf, 0x68, 0xac, 0xbe,
  0x7c, 0xf8, 0x92, 0xbd, 0x72, 0x92, 0x62, 0xbf, 0xd3, 0xed, 0x08, 0xbf,
  0x82, 0x30, 0xca, 0x3e, 0x4f, 0x10, 0xed, 0xbe, 0xce, 0xa5, 0x33, 0xbd,
  0x63, 0x12, 0xf1, 0xbe, 0xbf, 0x40, 0x8e, 0x3d, 0xff, 0xc0, 0xe3, 0x3d,
  0x4c, 0xd9, 0xde, 0xbe, 0x83, 0xdd, 0xa6, 0xbe, 0xc8, 0xd3, 0x80, 0xbf,
  0x03, 0x4f, 0x67, 0xbe, 0xdc, 0xa2, 0x00, 0xbf, 0x21, 0x1b, 0xc1, 0xbe,
  0x7f, 0x9a, 0xeb, 0x3e, 0x9d, 0x99, 0x19, 0x3f, 0xda, 0x25, 0xf1, 0xbd,
  0x09, 0xbb, 0x94, 0x3e, 0x2f, 0x03, 0x12, 0xbd, 0x32, 0x65, 0xc2, 0xbd,
  0x59, 0xb9, 0x95, 0xbd, 0xf0, 0xc5, 0x90, 0x3e, 0x86, 0x23, 0xbe, 0xbd,
  0xc5, 0xe9, 0xfc, 0x3c, 0x54, 0xa0, 0x55, 0x3e, 0xa2, 0xef, 0x60, 0xbe,
  0x6e, 0xb2, 0x08, 0x3e, 0xeb, 0xd4, 0xfd, 0xbc, 0x65, 0x14, 0x0d, 0xbe,
  0x74, 0x7a, 0xc4, 0x3e, 0xfb, 0x19, 0x3b, 0x3e, 0x25, 0xcb, 0x78, 0xbd,
  0x9c, 0xd7, 0x3c, 0xbd, 0x3b, 0x42, 0x81, 0xbe, 0x4a, 0x46, 0xc5, 0x3d,
  0xb9, 0xae, 0x6d, 0x3d, 0xfa, 0x18, 0x5f, 0xbe, 0x68, 0xc8, 0x8c, 0x3e,
  0x98, 0x05, 0x89, 0x3e, 0x9f, 0x94, 0xa4, 0xbd, 0x7d, 0x37, 0xe0, 0xbd,
  0x4e, 0xf0, 0xfc, 0xbd, 0x56, 0xfb, 0xff, 0xff, 0x04, 0x00, 0x00, 0x00,
  0x00, 0x03, 0x00, 0x00, 0x87, 0xa9, 0x37, 0x3e, 0x57, 0xa3, 0x9a, 0xbd,
  0x7c, 0xb2, 0x1f, 0xbe, 0x0b, 0x80, 0x4f, 0xbe, 0xd5, 0xa3, 0x26, 0x3d,
  0x70, 0x6e, 0x87, 0x3d, 0x19, 0xbf, 0x2a, 0x3d, 0xaa, 0x82, 0xa1, 0xbe,
  0x0c, 0x23, 0xf4, 0xbd, 0x93, 0xa9, 0xa1, 0xbe, 0x86, 0x33, 0x0f, 0xbe,
  0x3b, 0xe0, 0xa7, 0xbe, 0xd6, 0x8e, 0xd8, 0x3e, 0x22, 0xb1, 0x08, 0x3e,
  0x6f, 0x53, 0xd9, 0x3d, 0xe3, 0xec, 0x0e, 0xbf, 0x04, 0x4f, 0x75, 0xbe,
  0x2e, 0x77, 0x51, 0xbe, 0x54, 0xab, 0x7d, 0xbe, 0xbc, 0x56, 0x30, 0x3c,
  0x7d, 0x52, 0x5e, 0x3e, 0xfe, 0xc4, 0x52, 0x3e, 0x88, 0x51, 0xb2, 0x3e,
  0xd2, 0x76, 0x32, 0xbf, 0x08, 0xff, 0x58, 0xbe, 0xe9, 0x48, 0xb9, 0x3d,
  0xb2, 0xd2, 0xc8, 0xbc, 0x0b, 0x4b, 0xb4, 0x3f, 0xe4, 0x7c, 0x9e, 0x3e,
  0xdc, 0xff, 0xa7, 0x3f, 0x78, 0x6a, 0x58, 0x3e, 0x89, 0xe1, 0x7f, 0x3e,
  0x17, 0x2c, 0x06, 0x3f, 0xe9, 0xd5, 0xed, 0xbe, 0x9a, 0xe4, 0x90, 0xbe,
  0x2c, 0x6d, 0xdb, 0xbd, 0x0c, 0x98, 0x72, 0x3d, 0x06, 0xca, 0xf1, 0x3e,
  0x22, 0xe9, 0x3c, 0x3e, 0x0c, 0xb0, 0x00, 0xbf, 0xa0, 0x15, 0xda, 0x3e,
  0xe3, 0x7e, 0x12, 0xbe, 0xd5, 0x7b, 0xa1, 0xbe, 0x53, 0x54, 0x78, 0x3f,
  0x6e, 0x32, 0xac, 0x3d, 0xe2, 0x95, 0x15, 0x3f, 0xcf, 0x57, 0x81, 0x3e,
  0xb5, 0x3c, 0x24, 0x3d, 0x69, 0xf5, 0x5d, 0xbe, 0x33, 0x08, 0x67, 0xbe,
  0x0c, 0xf2, 0x81, 0x3e, 0x89, 0x86, 0x7c, 0xbe, 0x2b, 0x0a, 0xd3, 0xbe,
  0x16, 0x8b, 0xec, 0x3d, 0x4a, 0x46, 0x02, 0xbf, 0xb2, 0x69, 0x8e, 0xbe,
  0x69, 0x38, 0xea, 0xbd, 0x6f, 0xdb, 0x83, 0xbe, 0x58, 0x8c, 0xd5, 0x3e,
  0x11, 0x77, 0x30, 0xbf, 0x00, 0x75, 0xdb, 0x3c, 0x05, 0x8d, 0x0a, 0xbe,
  0x67, 0xae, 0x18, 0xbf, 0x92, 0xce, 0x46, 0xbd, 0x9f, 0x57, 0xef, 0x3d,
  0xc4, 0xa3, 0x8e, 0xbd, 0x1f, 0x32, 0x8e, 0x3e, 0xb5, 0xbb, 0xc3, 0xbe,
  0x01, 0x5e, 0x98, 0xbd, 0xf2, 0x0e, 0xf9, 0xbe, 0xd2, 0x19, 0x17, 0xbf,
  0x5c, 0x8b, 0xa6, 0x3e, 0x87, 0xbb, 0x2b, 0x3f, 0x95, 0xa2, 0x60, 0x3e,
  0xcb, 0xa3, 0x5a, 0xbe, 0xcd, 0xd1, 0x3f, 0xbe, 0x63, 0x13, 0x21, 0xbf,
  0x1e, 0x2d, 0xc7, 0xbe, 0xc4, 0xf7, 0xf9, 0x3b, 0x08, 0x2b, 0xd3, 0x3d,
  0x3b, 0x28, 0xa9, 0x3e, 0xdf, 0xcb, 0x51, 0xbe, 0xa9, 0x1b, 0x31, 0xbe,
  0x39, 0x80, 0x76, 0xbe, 0xd4, 0x08, 0xca, 0xbe, 0x89, 0x35, 0xb7, 0xbe,
  0x6f, 0xed, 0xd2, 0x3e, 0x92, 0x99, 0x18, 0xbf, 0x6b, 0xe3, 0x7b, 0x3d,
  0xdf, 0x73, 0x00, 0xbf, 0x08, 0xc8, 0xed, 0xbd, 0x1f, 0xcd, 0x01, 0xbe,
  0x84, 0x64, 0x4f, 0xbe, 0xc1, 0xf5, 0x6e, 0xbe, 0x26, 0x1b, 0xf9, 0x3e,
  0x09, 0x08, 0x6a, 0xbf, 0x82, 0x1b, 0x38, 0x3f, 0x11, 0x60, 0x93, 0xbf,
  0x27, 0x61, 0xe8, 0x3e, 0x89, 0x94, 0x65, 0xbf, 0x22, 0x36, 0x9f, 0x3c,
  0xa1, 0xae, 0x8d, 0xbf, 0xe5, 0x09, 0xbe, 0x3e, 0x55, 0x85, 0x70, 0x3f,
  0x2e, 0xaa, 0x39, 0x3f, 0x0f, 0x51, 0xed, 0xbe, 0x26, 0x3f, 0x97, 0xbe,
  0xcf, 0x77, 0xe1, 0x3e, 0x53, 0x32, 0x34, 0x3e, 0xbb, 0x72, 0x69, 0xbe,
  0x9b, 0x3b, 0x7b, 0x3e, 0xbe, 0xfb, 0x8f, 0x3e, 0x99, 0x48, 0xa2, 0xbe,
  0xba, 0xfc, 0x4e, 0xbf, 0x70, 0x2b, 0x43, 0xbe, 0xbb, 0x74, 0x01, 0x40,
  0xbd, 0x04, 0x25, 0xbf, 0x00, 0xee, 0xb2, 0x3f, 0x7e, 0x27, 0xe3, 0x3e,
  0x79, 0x2b, 0x42, 0x3e, 0x9e, 0xd0, 0x06, 0xbe, 0xf1, 0x2b, 0x6c, 0xbd,
  0x36, 0x1a, 0x13, 0xbe, 0x61, 0x85, 0x49, 0x3e, 0x6a, 0x37, 0x85, 0xbe,
  0x14, 0x77, 0x10, 0x3e, 0x1f, 0x8e, 0x49, 0xbe, 0x84, 0x96, 0xf5, 0xbd,
  0x71, 0x03, 0x3b, 0x3d, 0x9e, 0x99, 0xd6, 0xbc, 0xe7, 0x7b, 0x13, 0xbe,
  0x74, 0xce, 0x8a, 0x3d, 0x48, 0x20, 0x05, 0xbe, 0x5f, 0x55, 0x31, 0xbe,
  0xea, 0x7a, 0x37, 0xbe, 0x0c, 0x55, 0x19, 0x3c, 0xb4, 0xf4, 0xe6, 0x3d,
  0xec, 0x18, 0xe7, 0x3b, 0x07, 0x27, 0x33, 0xbe, 0xff, 0xfb, 0x1c, 0xbd,
  0xf0, 0x29, 0x51, 0xbe, 0xd1, 0x04, 0xa6, 0xbe, 0x7b, 0x63, 0x80, 0xbe,
  0x8c, 0xca, 0x60, 0x3e, 0xd2, 0x34, 0x7d, 0xbd, 0x34, 0xad, 0x85, 0xbe,
  0x54, 0x3c, 0x44, 0x3e, 0xb4, 0x2d, 0x78, 0x3f, 0xbd, 0x6e, 0xa6, 0xbf,
  0xe4, 0xe1, 0xcf, 0x3e, 0x20, 0x83, 0x5b, 0xbf, 0x44, 0x99, 0xfc, 0x3e,
  0xa5, 0xef, 0x10, 0x3f, 0xa2, 0x3c, 0xfa, 0xbd, 0x6c, 0x73, 0xf7, 0x3d,
  0xed, 0x97, 0x7e, 0xbf, 0xf3, 0x97, 0x01, 0xbf, 0x6c, 0x56, 0xcd, 0xbf,
  0x8a, 0x4a, 0x2b, 0xbf, 0x05, 0x64, 0x8c, 0x3d, 0x5b, 0x50, 0xec, 0x3e,
  0x9b, 0x30, 0x96, 0x3d, 0x99, 0xdf, 0x8d, 0xbe, 0xea, 0xf3, 0x90, 0xbf,
  0xda, 0x82, 0xe5, 0x3e, 0xae, 0x1d, 0x63, 0xbd, 0x16, 0xf4, 0x1a, 0xbf,
  0x14, 0x7e, 0x01, 0xbf, 0x5d, 0x3d, 0x7a, 0xbe, 0x15, 0xf8, 0xad, 0x3d,
  0x3a, 0x8b, 0x0f, 0xbd, 0x07, 0x33, 0x23, 0xbe, 0x6d, 0x57, 0xd5, 0x3d,
  0xff, 0xa3, 0x62, 0x3e, 0x3e, 0x71, 0x4a, 0x3e, 0x9b, 0x51, 0xba, 0xbe,
  0xab, 0x38, 0x7e, 0xbd, 0x55, 0xb1, 0xb2, 0x3e, 0xb4, 0x10, 0x42, 0xbd,
  0xbe, 0x20, 0x9c, 0x3e, 0xec, 0x51, 0x1a, 0xbe, 0xb6, 0x39, 0x7c, 0xbe,
  0x2e, 0x4d, 0xf1, 0x3d, 0x83, 0x2d, 0xa4, 0x3e, 0xbe, 0x33, 0x2e, 0xbe,
  0x35, 0xa0, 0xa9, 0x3e, 0x27, 0xcb, 0xda, 0xbc, 0x20, 0x69, 0x9b, 0x3e,
  0xda, 0xd7, 0x86, 0x3e, 0x74, 0x7d, 0x8b, 0xbe, 0x14, 0x3a, 0x46, 0x3e,
  0xc5, 0xdd, 0x8e, 0x3e, 0x62, 0xfe, 0xff, 0xff, 0x04, 0x00, 0x00, 0x00,
  0x20, 0x01, 0x00, 0x00, 0x68, 0x38, 0x95, 0xbe, 0xdc, 0xe7, 0x71, 0xbe,
  0xe4, 0xd2, 0x40, 0x3f, 0x15, 0x40, 0xe1, 0xbe, 0x71, 0x2a, 0x04, 0xbf,
  0x94, 0x5a, 0x54, 0x3f, 0xce, 0xd8, 0xf5, 0xbe, 0x95, 0x65, 0xc1, 0xbe,
  0x3d, 0x34, 0x46, 0x3f, 0xb2, 0xdc, 0x2c, 0xbf, 0x1d, 0x37, 0xff, 0xbe,
  0x4a, 0xc5, 0x29, 0xbf, 0x87, 0xb7, 0xc2, 0xbf, 0xb4, 0x89, 0x0e, 0xbf,
  0x79, 0xd9, 0x79, 0xbf, 0x31, 0x91, 0xc5, 0xbf, 0xc1, 0xd8, 0xd5, 0xbe,
  0x4e, 0x49, 0x1e, 0xbf, 0xcc, 0x27, 0x30, 0x40, 0x83, 0x81, 0x9a, 0xbe,
  0xf0, 0x28, 0xc3, 0x3e, 0x10, 0x7e, 0xfa, 0x3e, 0x5b, 0x28, 0xbc, 0xbd,
  0x70, 0x89, 0x35, 0x3f, 0x9e, 0xff, 0xea, 0x3e, 0xbd, 0x9c, 0xbb, 0x3e,
  0x6d, 0xcb, 0x89, 0x3f, 0xa7, 0xab, 0xb5, 0xbe, 0xb6, 0x60, 0xf1, 0x3f,
  0xd9, 0xca, 0x20, 0xbf, 0x54, 0xc4, 0x3f, 0xbf, 0x61, 0x88, 0x15, 0x40,
  0x33, 0xa5, 0xd0, 0xbe, 0xf3, 0xa8, 0x27, 0xbf, 0xa8, 0x31, 0x00, 0x40,
  0x3e, 0x00, 0xe4, 0xbd, 0x1c, 0x81, 0xe3, 0x3f, 0xd6, 0x98, 0x90, 0xbe,
  0x38, 0x7b, 0x84, 0x3e, 0xac, 0xcb, 0xd7, 0x3f, 0x61, 0x41, 0x37, 0xbe,
  0xe7, 0x6c, 0x4f, 0x3e, 0x28, 0xad, 0xc7, 0x3f, 0x43, 0x1b, 0xdb, 0xbe,
  0xf4, 0x70, 0x6c, 0x3e, 0x7e, 0x91, 0x09, 0x3e, 0xd2, 0x62, 0x93, 0x3f,
  0xc5, 0x70, 0x97, 0xbe, 0x5b, 0x38, 0x98, 0x3e, 0x02, 0xd8, 0x0b, 0x40,
  0xcd, 0x96, 0xbb, 0x3e, 0xb5, 0x0b, 0x01, 0x3e, 0xb1, 0x87, 0xf1, 0x3f,
  0x4c, 0x7e, 0xb5, 0x3e, 0x14, 0x11, 0x4d, 0x3e, 0xac, 0xd4, 0x1e, 0xbf,
  0x70, 0xd4, 0xf6, 0x3e, 0xba, 0xc7, 0x29, 0xbe, 0xf7, 0x0a, 0x9a, 0xbf,
  0x79, 0x82, 0x05, 0x3e, 0x77, 0x38, 0xe9, 0x3e, 0xb4, 0x7c, 0x92, 0xbf,
  0x0b, 0x9e, 0x92, 0x3e, 0xa5, 0xfd, 0x24, 0xbf, 0x70, 0xec, 0x2d, 0x3e,
  0x39, 0xf5, 0x5f, 0xbf, 0x3b, 0x03, 0xd2, 0xbf, 0xf9, 0x18, 0x41, 0xbc,
  0x04, 0x4b, 0x14, 0xbf, 0x45, 0xed, 0xa8, 0xbf, 0x95, 0xbf, 0x5b, 0x3e,
  0xc9, 0xb2, 0xfa, 0xbe, 0x8e, 0xff, 0xff, 0xff, 0x04, 0x00, 0x00, 0x00,
  0x0c, 0x00, 0x00, 0x00, 0xff, 0xff, 0xff, 0xff, 0x19, 0x00, 0x00, 0x00,
  0x08, 0x00, 0x00, 0x00, 0xa6, 0xff, 0xff, 0xff, 0x04, 0x00, 0x00, 0x00,
  0x20, 0x00, 0x00, 0x00, 0x54, 0x3b, 0xd4, 0x3e, 0xd6, 0x4d, 0x30, 0xc0,
  0x08, 0xd7, 0x02, 0x40, 0xfe, 0xd1, 0xa9, 0x3e, 0xb5, 0xda, 0x26, 0x40,
  0x90, 0x4d, 0x88, 0xbd, 0x10, 0x22, 0x2d, 0x3f, 0x7b, 0x30, 0x06, 0xc0,
  0xd2, 0xff, 0xff, 0xff, 0x04, 0x00, 0x00, 0x00, 0x20, 0x00, 0x00, 0x00,
  0x74, 0x45, 0x0d, 0x40, 0x3e, 0x6e, 0x1a, 0xc1, 0x0f, 0xb2, 0x78, 0x40,
  0x7e, 0xc0, 0x41, 0x40, 0xd4, 0x91, 0xb5, 0xc0, 0x5a, 0x86, 0xed, 0x3f,
  0x28, 0x51, 0x94, 0x40, 0xc4, 0xa8, 0xe6, 0xbf, 0x00, 0x00, 0x06, 0x00,
  0x08, 0x00, 0x04, 0x00, 0x06, 0x00, 0x00, 0x00, 0x04, 0x00, 0x00, 0x00,
  0x20, 0x00, 0x00, 0x00, 0x5f, 0x11, 0x9e, 0xbf, 0x18, 0xee, 0x3d, 0xbf,
  0x95, 0xf5, 0xd0, 0xbf, 0x38, 0x90, 0xdc, 0xbf, 0x32, 0xe2, 0x99, 0xbf,
  0x40, 0x51, 0xcb, 0xbf, 0x25, 0xf6, 0x21, 0xbe, 0xfd, 0xdf, 0xae, 0x3f,
  0x64, 0xee, 0xff, 0xff, 0x68, 0xee, 0xff, 0xff, 0x0f, 0x00, 0x00, 0x00,
  0x4d, 0x4c, 0x49, 0x52, 0x20, 0x43, 0x6f, 0x6e, 0x76, 0x65, 0x72, 0x74,
  0x65, 0x64, 0x2e, 0x00, 0x01, 0x00, 0x00, 0x00, 0x14, 0x00, 0x00, 0x00,
  0x00, 0x00, 0x0e, 0x00, 0x18, 0x00, 0x14, 0x00, 0x10, 0x00, 0x0c, 0x00,
  0x08, 0x00, 0x04, 0x00, 0x0e, 0x00, 0x00, 0x00, 0x14, 0x00, 0x00, 0x00,
  0x1c, 0x00, 0x00, 0x00, 0x54, 0x04, 0x00, 0x00, 0x58, 0x04, 0x00, 0x00,
  0x5c, 0x04, 0x00, 0x00, 0x04, 0x00, 0x00, 0x00, 0x6d, 0x61, 0x69, 0x6e,
  0x00, 0x00, 0x00, 0x00, 0x15, 0x00, 0x00, 0x00, 0x0c, 0x04, 0x00, 0x00,
  0xd4, 0x03, 0x00, 0x00, 0x94, 0x03, 0x00, 0x00, 0x30, 0x03, 0x00, 0x00,
  0x08, 0x03, 0x00, 0x00, 0xe0, 0x02, 0x00, 0x00, 0xb0, 0x02, 0x00, 0x00,
  0x88, 0x02, 0x00, 0x00, 0x54, 0x02, 0x00, 0x00, 0x0c, 0x02, 0x00, 0x00,
  0xe4, 0x01, 0x00, 0x00, 0xbc, 0x01, 0x00, 0x00, 0x8c, 0x01, 0x00, 0x00,
  0x64, 0x01, 0x00, 0x00, 0x30, 0x01, 0x00, 0x00, 0xe8, 0x00, 0x00, 0x00,
  0xc0, 0x00, 0x00, 0x00, 0x98, 0x00, 0x00, 0x00, 0x64, 0x00, 0x00, 0x00,
  0x3c, 0x00, 0x00, 0x00, 0x04, 0x00, 0x00, 0x00, 0xc6, 0xfc, 0xff, 0xff,
  0x14, 0x00, 0x00, 0x00, 0x00, 0x00, 0x00, 0x08, 0x10, 0x00, 0x00, 0x00,
  0x14, 0x00, 0x00, 0x00, 0x06, 0x00, 0x00, 0x00, 0x2c, 0xef, 0xff, 0xff,
  0x01, 0x00, 0x00, 0x00, 0x23, 0x00, 0x00, 0x00, 0x03, 0x00, 0x00, 0x00,
  0x22, 0x00, 0x00, 0x00, 0x0e, 0x00, 0x00, 0x00, 0x09, 0x00, 0x00, 0x00,
  0xba, 0xfc, 0xff, 0xff, 0x0c, 0x00, 0x00, 0x00, 0x10, 0x00, 0x00, 0x00,
  0x04, 0x00, 0x00, 0x00, 0x01, 0x00, 0x00, 0x00, 0x22, 0x00, 0x00, 0x00,
  0x02, 0x00, 0x00, 0x00, 0x21, 0x00, 0x00, 0x00, 0x0d, 0x00, 0x00, 0x00,
  0x1e, 0xfd, 0xff, 0xff, 0x14, 0x00, 0x00, 0x00, 0x00, 0x00, 0x00, 0x1b,
  0x10, 0x00, 0x00, 0x00, 0x14, 0x00, 0x00, 0x00, 0x05, 0x00, 0x00, 0x00,
  0x84, 0xef, 0xff, 0xff, 0x01, 0x00, 0x00, 0x00, 0x21, 0x00, 0x00, 0x00,
  0x02, 0x00, 0x00, 0x00, 0x20, 0x00, 0x00, 0x00, 0x0a, 0x00, 0x00, 0x00,
  0x0e, 0xfd, 0xff, 0xff, 0x0c, 0x00, 0x00, 0x00, 0x10, 0x00, 0x00, 0x00,
  0x01, 0x00, 0x00, 0x00, 0x01, 0x00, 0x00, 0x00, 0x20, 0x00, 0x00, 0x00,
  0x02, 0x00, 0x00, 0x00, 0x1f, 0x00, 0x00, 0x00, 0x08, 0x00, 0x00, 0x00,
  0x32, 0xfd, 0xff, 0xff, 0x0c, 0x00, 0x00, 0x00, 0x10, 0x00, 0x00, 0x00,
  0x04, 0x00, 0x00, 0x00, 0x01, 0x00, 0x00, 0x00, 0x1f, 0x00, 0x00, 0x00,
  0x02, 0x00, 0x00, 0x00, 0x1e, 0x00, 0x00, 0x00, 0x04, 0x00, 0x00, 0x00,
  0x96, 0xfd, 0xff, 0xff, 0x14, 0x00, 0x00, 0x00, 0x00, 0x00, 0x00, 0x01,
  0x20, 0x00, 0x00, 0x00, 0x24, 0x00, 0x00, 0x00, 0x03, 0x00, 0x00, 0x00,
  0xe8, 0xfd, 0xff, 0xff, 0x00, 0x00, 0x00, 0x01, 0x01, 0x00, 0x00, 0x00,
  0x01, 0x00, 0x00, 0x00, 0x00, 0x00, 0x00, 0x01, 0x01, 0x00, 0x00, 0x00,
  0x1e, 0x00, 0x00, 0x00, 0x03, 0x00, 0x00, 0x00, 0x1d, 0x00, 0x00, 0x00,
  0x07, 0x00, 0x00, 0x00, 0x03, 0x00, 0x00, 0x00, 0xda, 0xfd, 0xff, 0xff,
  0x14, 0x00, 0x00, 0x00, 0x00, 0x00, 0x00, 0x34, 0x10, 0x00, 0x00, 0x00,
  0x14, 0x00, 0x00, 0x00, 0x02, 0x00, 0x00, 0x00, 0x40, 0xf0, 0xff, 0xff,
  0x01, 0x00, 0x00, 0x00, 0x1d, 0x00, 0x00, 0x00, 0x02, 0x00, 0x00, 0x00,
  0x1c, 0x00, 0x00, 0x00, 0x0c, 0x00, 0x00, 0x00, 0xca, 0xfd, 0xff, 0xff,
  0x0c, 0x00, 0x00, 0x00, 0x10, 0x00, 0x00, 0x00, 0x01, 0x00, 0x00, 0x00,
  0x01, 0x00, 0x00, 0x00, 0x1c, 0x00, 0x00, 0x00, 0x02, 0x00, 0x00, 0x00,
  0x1b, 0x00, 0x00, 0x00, 0x08, 0x00, 0x00, 0x00, 0xbe, 0xfd, 0xff, 0xff,
  0x10, 0x00, 0x00, 0x00, 0x00, 0x00, 0x00, 0x16, 0x0c, 0x00, 0x00, 0x00,
  0x10, 0x00, 0x00, 0x00, 0x90, 0xf0, 0xff, 0xff, 0x01, 0x00, 0x00, 0x00,
  0x1b, 0x00, 0x00, 0x00, 0x02, 0x00, 0x00, 0x00, 0x1a, 0x00, 0x00, 0x00,
  0x0b, 0x00, 0x00, 0x00, 0x1a, 0xfe, 0xff, 0xff, 0x0c, 0x00, 0x00, 0x00,
  0x10, 0x00, 0x00, 0x00, 0x01, 0x00, 0x00, 0x00, 0x01, 0x00, 0x00, 0x00,
  0x1a, 0x00, 0x00, 0x00, 0x02, 0x00, 0x00, 0x00, 0x19, 0x00, 0x00, 0x00,
  0x08, 0x00, 0x00, 0x00, 0x3e, 0xfe, 0xff, 0xff, 0x0c, 0x00, 0x00, 0x00,
  0x10, 0x00, 0x00, 0x00, 0x04, 0x00, 0x00, 0x00, 0x01, 0x00, 0x00, 0x00,
  0x19, 0x00, 0x00, 0x00, 0x02, 0x00, 0x00, 0x00, 0x18, 0x00, 0x00, 0x00,
  0x04, 0x00, 0x00, 0x00, 0xa2, 0xfe, 0xff, 0xff, 0x14, 0x00, 0x00, 0x00,
  0x00, 0x00, 0x00, 0x01, 0x20, 0x00, 0x00, 0x00, 0x24, 0x00, 0x00, 0x00,
  0x03, 0x00, 0x00, 0x00, 0xf4, 0xfe, 0xff, 0xff, 0x00, 0x00, 0x00, 0x01,
  0x01, 0x00, 0x00, 0x00, 0x01, 0x00, 0x00, 0x00, 0x00, 0x00, 0x00, 0x01,
  0x01, 0x00, 0x00, 0x00, 0x18, 0x00, 0x00, 0x00, 0x03, 0x00, 0x00, 0x00,
  0x17, 0x00, 0x00, 0x00, 0x06, 0x00, 0x00, 0x00, 0x02, 0x00, 0x00, 0x00,
  0xe6, 0xfe, 0xff, 0xff, 0x14, 0x00, 0x00, 0x00, 0x00, 0x00, 0x00, 0x34,
  0x10, 0x00, 0x00, 0x00, 0x14, 0x00, 0x00, 0x00, 0x02, 0x00, 0x00, 0x00,
  0x4c, 0xf1, 0xff, 0xff, 0x01, 0x00, 0x00, 0x00, 0x17, 0x00, 0x00, 0x00,
  0x02, 0x00, 0x00, 0x00, 0x16, 0x00, 0x00, 0x00, 0x0c, 0x00, 0x00, 0x00,
  0xd6, 0xfe, 0xff, 0xff, 0x0c, 0x00, 0x00, 0x00, 0x10, 0x00, 0x00, 0x00,
  0x01, 0x00, 0x00, 0x00, 0x01, 0x00, 0x00, 0x00, 0x16, 0x00, 0x00, 0x00,
  0x02, 0x00, 0x00, 0x00, 0x15, 0x00, 0x00, 0x00, 0x08, 0x00, 0x00, 0x00,
  0xca, 0xfe, 0xff, 0xff, 0x10, 0x00, 0x00, 0x00, 0x00, 0x00, 0x00, 0x16,
  0x0c, 0x00, 0x00, 0x00, 0x10, 0x00, 0x00, 0x00, 0x9c, 0xf1, 0xff, 0xff,
  0x01, 0x00, 0x00, 0x00, 0x15, 0x00, 0x00, 0x00, 0x02, 0x00, 0x00, 0x00,
  0x14, 0x00, 0x00, 0x00, 0x0b, 0x00, 0x00, 0x00, 0x26, 0xff, 0xff, 0xff,
  0x0c, 0x00, 0x00, 0x00, 0x10, 0x00, 0x00, 0x00, 0x01, 0x00, 0x00, 0x00,
  0x01, 0x00, 0x00, 0x00, 0x14, 0x00, 0x00, 0x00, 0x02, 0x00, 0x00, 0x00,
  0x13, 0x00, 0x00, 0x00, 0x08, 0x00, 0x00, 0x00, 0x4a, 0xff, 0xff, 0xff,
  0x0c, 0x00, 0x00, 0x00, 0x10, 0x00, 0x00, 0x00, 0x04, 0x00, 0x00, 0x00,
  0x01, 0x00, 0x00, 0x00, 0x13, 0x00, 0x00, 0x00, 0x02, 0x00, 0x00, 0x00,
  0x12, 0x00, 0x00, 0x00, 0x04, 0x00, 0x00, 0x00, 0xae, 0xff, 0xff, 0xff,
  0x20, 0x00, 0x00, 0x00, 0x00, 0x00, 0x00, 0x01, 0x2c, 0x00, 0x00, 0x00,
  0x30, 0x00, 0x00, 0x00, 0x03, 0x00, 0x00, 0x00, 0x0c, 0x00, 0x14, 0x00,
  0x13, 0x00, 0x0c, 0x00, 0x08, 0x00, 0x07, 0x00, 0x0c, 0x00, 0x00, 0x00,
  0x00, 0x00, 0x00, 0x01, 0x01, 0x00, 0x00, 0x00, 0x02, 0x00, 0x00, 0x00,
  0x00, 0x00, 0x00, 0x01, 0x01, 0x00, 0x00, 0x00, 0x12, 0x00, 0x00, 0x00,
  0x03, 0x00, 0x00, 0x00, 0x11, 0x00, 0x00, 0x00, 0x05, 0x00, 0x00, 0x00,
  0x01, 0x00, 0x00, 0x00, 0x00, 0x00, 0x0e, 0x00, 0x18, 0x00, 0x14, 0x00,
  0x10, 0x00, 0x0c, 0x00, 0x0b, 0x00, 0x04, 0x00, 0x0e, 0x00, 0x00, 0x00,
  0x14, 0x00, 0x00, 0x00, 0x00, 0x00, 0x00, 0x34, 0x10, 0x00, 0x00, 0x00,
  0x14, 0x00, 0x00, 0x00, 0x02, 0x00, 0x00, 0x00, 0x74, 0xf2, 0xff, 0xff,
  0x01, 0x00, 0x00, 0x00, 0x11, 0x00, 0x00, 0x00, 0x02, 0x00, 0x00, 0x00,
  0x10, 0x00, 0x00, 0x00, 0x0c, 0x00, 0x00, 0x00, 0x00, 0x00, 0x0a, 0x00,
  0x10, 0x00, 0x0c, 0x00, 0x08, 0x00, 0x04, 0x00, 0x0a, 0x00, 0x00, 0x00,
  0x0c, 0x00, 0x00, 0x00, 0x10, 0x00, 0x00, 0x00, 0x01, 0x00, 0x00, 0x00,
  0x01, 0x00, 0x00, 0x00, 0x10, 0x00, 0x00, 0x00, 0x02, 0x00, 0x00, 0x00,
  0x0f, 0x00, 0x00, 0x00, 0x08, 0x00, 0x00, 0x00, 0x00, 0x00, 0x0e, 0x00,
  0x14, 0x00, 0x00, 0x00, 0x10, 0x00, 0x0c, 0x00, 0x0b, 0x00, 0x04, 0x00,
  0x0e, 0x00, 0x00, 0x00, 0x10, 0x00, 0x00, 0x00, 0x00, 0x00, 0x00, 0x16,
  0x0c, 0x00, 0x00, 0x00, 0x10, 0x00, 0x00, 0x00, 0xe0, 0xf2, 0xff, 0xff,
  0x01, 0x00, 0x00, 0x00, 0x0f, 0x00, 0x00, 0x00, 0x02, 0x00, 0x00, 0x00,
  0x00, 0x00, 0x00, 0x00, 0x0b, 0x00, 0x00, 0x00, 0x01, 0x00, 0x00, 0x00,
  0x23, 0x00, 0x00, 0x00, 0x01, 0x00, 0x00, 0x00, 0x00, 0x00, 0x00, 0x00,
  0x24, 0x00, 0x00, 0x00, 0xc8, 0x0c, 0x00, 0x00, 0x7c, 0x0c, 0x00, 0x00,
  0x30, 0x0c, 0x00, 0x00, 0xfc, 0x0b, 0x00, 0x00, 0xb4, 0x0b, 0x00, 0x00,
  0x58, 0x0b, 0x00, 0x00, 0x10, 0x0b, 0x00, 0x00, 0xc8, 0x0a, 0x00, 0x00,
  0x84, 0x0a, 0x00, 0x00, 0x50, 0x0a, 0x00, 0x00, 0xf4, 0x09, 0x00, 0x00,
  0xb8, 0x09, 0x00, 0x00, 0x70, 0x09, 0x00, 0x00, 0x30, 0x09, 0x00, 0x00,
  0xf8, 0x08, 0x00, 0x00, 0xac, 0x08, 0x00, 0x00, 0x58, 0x08, 0x00, 0x00,
  0xf0, 0x07, 0x00, 0x00, 0x3c, 0x07, 0x00, 0x00, 0xac, 0x06, 0x00, 0x00,
  0x58, 0x06, 0x00, 0x00, 0x08, 0x06, 0x00, 0x00, 0xb4, 0x05, 0x00, 0x00,
  0x48, 0x05, 0x00, 0x00, 0x90, 0x04, 0x00, 0x00, 0xfc, 0x03, 0x00, 0x00,
  0xa8, 0x03, 0x00, 0x00, 0x58, 0x03, 0x00, 0x00, 0x04, 0x03, 0x00, 0x00,
  0x98, 0x02, 0x00, 0x00, 0xec, 0x01, 0x00, 0x00, 0x58, 0x01, 0x00, 0x00,
  0x04, 0x01, 0x00, 0x00, 0xa8, 0x00, 0x00, 0x00, 0x58, 0x00, 0x00, 0x00,
  0x04, 0x00, 0x00, 0x00, 0xde, 0xf3, 0xff, 0xff, 0x00, 0x00, 0x00, 0x01,
  0x14, 0x00, 0x00, 0x00, 0x1c, 0x00, 0x00, 0x00, 0x1c, 0x00, 0x00, 0x00,
  0x24, 0x00, 0x00, 0x00, 0x2c, 0x00, 0x00, 0x00, 0x02, 0x00, 0x00, 0x00,
  0xff, 0xff, 0xff, 0xff, 0x03, 0x00, 0x00, 0x00, 0xc4, 0xf3, 0xff, 0xff,
  0x11, 0x00, 0x00, 0x00, 0x50, 0x61, 0x72, 0x74, 0x69, 0x74, 0x69, 0x6f,
  0x6e, 0x65, 0x64, 0x43, 0x61, 0x6c, 0x6c, 0x3a, 0x30, 0x00, 0x00, 0x00,
  0x02, 0x00, 0x00, 0x00, 0x01, 0x00, 0x00, 0x00, 0x03, 0x00, 0x00, 0x00,
  0x2e, 0xf4, 0xff, 0xff, 0x00, 0x00, 0x00, 0x01, 0x14, 0x00, 0x00, 0x00,
  0x1c, 0x00, 0x00, 0x00, 0x1c, 0x00, 0x00, 0x00, 0x23, 0x00, 0x00, 0x00,
  0x28, 0x00, 0x00, 0x00, 0x02, 0x00, 0x00, 0x00, 0xff, 0xff, 0xff, 0xff,
  0x08, 0x00, 0x00, 0x00, 0x14, 0xf4, 0xff, 0xff, 0x0f, 0x00, 0x00, 0x00,
  0x66, 0x6c, 0x61, 0x74, 0x74, 0x65, 0x6e, 0x2f, 0x52, 0x65, 0x73, 0x68,
  0x61, 0x70, 0x65, 0x00, 0x02, 0x00, 0x00, 0x00, 0x01, 0x00, 0x00, 0x00,
  0x08, 0x00, 0x00, 0x00, 0x7a, 0xf4, 0xff, 0xff, 0x00, 0x00, 0x00, 0x01,
  0x14, 0x00, 0x00, 0x00, 0x1c, 0x00, 0x00, 0x00, 0x1c, 0x00, 0x00, 0x00,
  0x22, 0x00, 0x00, 0x00, 0x34, 0x00, 0x00, 0x00, 0x02, 0x00, 0x00, 0x00,
  0xff, 0xff, 0xff, 0xff, 0x08, 0x00, 0x00, 0x00, 0x60, 0xf4, 0xff, 0xff,
  0x1a, 0x00, 0x00, 0x00, 0x6f, 0x6e, 0x6e, 0x78, 0x5f, 0x74, 0x66, 0x5f,
  0x70, 0x72, 0x65, 0x66, 0x69, 0x78, 0x5f, 0x2f, 0x52, 0x65, 0x64, 0x75,
  0x63, 0x65, 0x4d, 0x65, 0x61, 0x6e, 0x00, 0x00, 0x02, 0x00, 0x00, 0x00,
  0x01, 0x00, 0x00, 0x00, 0x08, 0x00, 0x00, 0x00, 0xd2, 0xf4, 0xff, 0xff,
  0x00, 0x00, 0x00, 0x01, 0x14, 0x00, 0x00, 0x00, 0x20, 0x00, 0x00, 0x00,
  0x20, 0x00, 0x00, 0x00, 0x21, 0x00, 0x00, 0x00, 0x28, 0x00, 0x00, 0x00,
  0x03, 0x00, 0x00, 0x00, 0xff, 0xff, 0xff, 0xff, 0x08, 0x00, 0x00, 0x00,
  0x19, 0x00, 0x00, 0x00, 0xbc, 0xf4, 0xff, 0xff, 0x0b, 0x00, 0x00, 0x00,
  0x74, 0x72, 0x61, 0x6e, 0x73, 0x70, 0x6f, 0x73, 0x65, 0x5f, 0x38, 0x00,
  0x03, 0x00, 0x00, 0x00, 0x01, 0x00, 0x00, 0x00, 0x08, 0x00, 0x00, 0x00,
  0x19, 0x00, 0x00, 0x00, 0x22, 0xf5, 0xff, 0xff, 0x00, 0x00, 0x00, 0x01,
  0x14, 0x00, 0x00, 0x00, 0x20, 0x00, 0x00, 0x00, 0x20, 0x00, 0x00, 0x00,
  0x20, 0x00, 0x00, 0x00, 0x68, 0x00, 0x00, 0x00, 0x03, 0x00, 0x00, 0x00,
  0xff, 0xff, 0xff, 0xff, 0x19, 0x00, 0x00, 0x00, 0x08, 0x00, 0x00, 0x00,
  0x0c, 0xf5, 0xff, 0xff, 0x4a, 0x00, 0x00, 0x00, 0x6f, 0x6e, 0x6e, 0x78,
  0x5f, 0x74, 0x66, 0x5f, 0x70, 0x72, 0x65, 0x66, 0x69, 0x78, 0x5f, 0x2f,
  0x65, 0x6e, 0x63, 0x6f, 0x64, 0x65, 0x72, 0x2f, 0x65, 0x6e, 0x63, 0x6f,
  0x64, 0x65, 0x72, 0x2e, 0x38, 0x2f, 0x52, 0x65, 0x6c, 0x75, 0x3b, 0x41,
  0x64, 0x64, 0x5f, 0x32, 0x3b, 0x63, 0x6f, 0x6e, 0x76, 0x6f, 0x6c, 0x75,
  0x74, 0x69, 0x6f, 0x6e, 0x5f, 0x32, 0x2f, 0x53, 0x71, 0x75, 0x65, 0x65,
  0x7a, 0x65, 0x3b, 0x43, 0x6f, 0x6e, 0x73, 0x74, 0x5f, 0x32, 0x00, 0x00,
  0x03, 0x00, 0x00, 0x00, 0x01, 0x00, 0x00, 0x00, 0x19, 0x00, 0x00, 0x00,
  0x08, 0x00, 0x00, 0x00, 0xb2, 0xf5, 0xff, 0xff, 0x00, 0x00, 0x00, 0x01,
  0x14, 0x00, 0x00, 0x00, 0x24, 0x00, 0x00, 0x00, 0x24, 0x00, 0x00, 0x00,
  0x1f, 0x00, 0x00, 0x00, 0x7c, 0x00, 0x00, 0x00, 0x04, 0x00, 0x00, 0x00,
  0xff, 0xff, 0xff, 0xff, 0x01, 0x00, 0x00, 0x00, 0x19, 0x00, 0x00, 0x00,
  0x08, 0x00, 0x00, 0x00, 0xa0, 0xf5, 0xff, 0xff, 0x58, 0x00, 0x00, 0x00,
  0x6f, 0x6e, 0x6e, 0x78, 0x5f, 0x74, 0x66, 0x5f, 0x70, 0x72, 0x65, 0x66,
  0x69, 0x78, 0x5f, 0x2f, 0x65, 0x6e, 0x63, 0x6f, 0x64, 0x65, 0x72, 0x2f,
  0x65, 0x6e, 0x63, 0x6f, 0x64, 0x65, 0x72, 0x2e, 0x38, 0x2f, 0x52, 0x65,
  0x6c, 0x75, 0x3b, 0x41, 0x64, 0x64, 0x5f, 0x32, 0x3b, 0x63, 0x6f, 0x6e,
  0x76, 0x6f, 0x6c, 0x75, 0x74, 0x69, 0x6f, 0x6e, 0x5f, 0x32, 0x2f, 0x53,
  0x71, 0x75, 0x65, 0x65, 0x7a, 0x65, 0x3b, 0x43, 0x6f, 0x6e, 0x73, 0x74,
  0x5f, 0x32, 0x3b, 0x63, 0x6f, 0x6e, 0x76, 0x6f, 0x6c, 0x75, 0x74, 0x69,
  0x6f, 0x6e, 0x5f, 0x32, 0x00, 0x00, 0x00, 0x00, 0x04, 0x00, 0x00, 0x00,
  0x01, 0x00, 0x00, 0x00, 0x01, 0x00, 0x00, 0x00, 0x19, 0x00, 0x00, 0x00,
  0x08, 0x00, 0x00, 0x00, 0x5a, 0xf6, 0xff, 0xff, 0x00, 0x00, 0x00, 0x01,
  0x14, 0x00, 0x00, 0x00, 0x24, 0x00, 0x00, 0x00, 0x24, 0x00, 0x00, 0x00,
  0x1e, 0x00, 0x00, 0x00, 0x3c, 0x00, 0x00, 0x00, 0x04, 0x00, 0x00, 0x00,
  0xff, 0xff, 0xff, 0xff, 0x01, 0x00, 0x00, 0x00, 0x1b, 0x00, 0x00, 0x00,
  0x08, 0x00, 0x00, 0x00, 0x48, 0xf6, 0xff, 0xff, 0x18, 0x00, 0x00, 0x00,
  0x63, 0x6f, 0x6e, 0x76, 0x6f, 0x6c, 0x75, 0x74, 0x69, 0x6f, 0x6e, 0x5f,
  0x32, 0x2f, 0x45, 0x78, 0x70, 0x61, 0x6e, 0x64, 0x44, 0x69, 0x6d, 0x73,
  0x00, 0x00, 0x00, 0x00, 0x04, 0x00, 0x00, 0x00, 0x01, 0x00, 0x00, 0x00,
  0x01, 0x00, 0x00, 0x00, 0x1b, 0x00, 0x00, 0x00, 0x08, 0x00, 0x00, 0x00,
  0xc2, 0xf6, 0xff, 0xff, 0x00, 0x00, 0x00, 0x01, 0x14, 0x00, 0x00, 0x00,
  0x20, 0x00, 0x00, 0x00, 0x20, 0x00, 0x00, 0x00, 0x1d, 0x00, 0x00, 0x00,
  0x28, 0x00, 0x00, 0x00, 0x03, 0x00, 0x00, 0x00, 0xff, 0xff, 0xff, 0xff,
  0x1b, 0x00, 0x00, 0x00, 0x08, 0x00, 0x00, 0x00, 0xac, 0xf6, 0xff, 0xff,
  0x0b, 0x00, 0x00, 0x00, 0x74, 0x72, 0x61, 0x6e, 0x73, 0x70, 0x6f, 0x73,
  0x65, 0x5f, 0x37, 0x00, 0x03, 0x00, 0x00, 0x00, 0x01, 0x00, 0x00, 0x00,
  0x1b, 0x00, 0x00, 0x00, 0x08, 0x00, 0x00, 0x00, 0x12, 0xf7, 0xff, 0xff,
  0x00, 0x00, 0x00, 0x01, 0x14, 0x00, 0x00, 0x00, 0x20, 0x00, 0x00, 0x00,
  0x20, 0x00, 0x00, 0x00, 0x1c, 0x00, 0x00, 0x00, 0x24, 0x00, 0x00, 0x00,
  0x03, 0x00, 0x00, 0x00, 0xff, 0xff, 0xff, 0xff, 0x08, 0x00, 0x00, 0x00,
  0x1b, 0x00, 0x00, 0x00, 0xfc, 0xf6, 0xff, 0xff, 0x05, 0x00, 0x00, 0x00,
  0x50, 0x61, 0x64, 0x5f, 0x32, 0x00, 0x00, 0x00, 0x03, 0x00, 0x00, 0x00,
  0x01, 0x00, 0x00, 0x00, 0x08, 0x00, 0x00, 0x00, 0x1b, 0x00, 0x00, 0x00,
  0x5e, 0xf7, 0xff, 0xff, 0x00, 0x00, 0x00, 0x01, 0x14, 0x00, 0x00, 0x00,
  0x20, 0x00, 0x00, 0x00, 0x20, 0x00, 0x00, 0x00, 0x1b, 0x00, 0x00, 0x00,
  0x28, 0x00, 0x00, 0x00, 0x03, 0x00, 0x00, 0x00, 0xff, 0xff, 0xff, 0xff,
  0x08, 0x00, 0x00, 0x00, 0x19, 0x00, 0x00, 0x00, 0x48, 0xf7, 0xff, 0xff,
  0x0b, 0x00, 0x00, 0x00, 0x74, 0x72, 0x61, 0x6e, 0x73, 0x70, 0x6f, 0x73,
  0x65, 0x5f, 0x35, 0x00, 0x03, 0x00, 0x00, 0x00, 0x01, 0x00, 0x00, 0x00,
  0x08, 0x00, 0x00, 0x00, 0x19, 0x00, 0x00, 0x00, 0xae, 0xf7, 0xff, 0xff,
  0x00, 0x00, 0x00, 0x01, 0x14, 0x00, 0x00, 0x00, 0x20, 0x00, 0x00, 0x00,
  0x20, 0x00, 0x00, 0x00, 0x1a, 0x00, 0x00, 0x00, 0x68, 0x00, 0x00, 0x00,
  0x03, 0x00, 0x00, 0x00, 0xff, 0xff, 0xff, 0xff, 0x19, 0x00, 0x00, 0x00,
  0x08, 0x00, 0x00, 0x00, 0x98, 0xf7, 0xff, 0xff, 0x4a, 0x00, 0x00, 0x00,
  0x6f, 0x6e, 0x6e, 0x78, 0x5f, 0x74, 0x66, 0x5f, 0x70, 0x72, 0x65, 0x66,
  0x69, 0x78, 0x5f, 0x2f, 0x65, 0x6e, 0x63, 0x6f, 0x64, 0x65, 0x72, 0x2f,
  0x65, 0x6e, 0x63, 0x6f, 0x64, 0x65, 0x72, 0x2e, 0x35, 0x2f, 0x52, 0x65,
  0x6c, 0x75, 0x3b, 0x41, 0x64, 0x64, 0x5f, 0x31, 0x3b, 0x63, 0x6f, 0x6e,
  0x76, 0x6f, 0x6c, 0x75, 0x74, 0x69, 0x6f, 0x6e, 0x5f, 0x31, 0x2f, 0x53,
  0x71, 0x75, 0x65, 0x65, 0x7a, 0x65, 0x3b, 0x43, 0x6f, 0x6e, 0x73, 0x74,
  0x5f, 0x34, 0x00, 0x00, 0x03, 0x00, 0x00, 0x00, 0x01, 0x00, 0x00, 0x00,
  0x19, 0x00, 0x00, 0x00, 0x08, 0x00, 0x00, 0x00, 0x3e, 0xf8, 0xff, 0xff,
  0x00, 0x00, 0x00, 0x01, 0x14, 0x00, 0x00, 0x00, 0x24, 0x00, 0x00, 0x00,
  0x24, 0x00, 0x00, 0x00, 0x19, 0x00, 0x00, 0x00, 0x88, 0x00, 0x00, 0x00,
  0x04, 0x00, 0x00, 0x00, 0xff, 0xff, 0xff, 0xff, 0x01, 0x00, 0x00, 0x00,
  0x19, 0x00, 0x00, 0x00, 0x08, 0x00, 0x00, 0x00, 0x2c, 0xf8, 0xff, 0xff,
  0x66, 0x00, 0x00, 0x00, 0x6f, 0x6e, 0x6e, 0x78, 0x5f, 0x74, 0x66, 0x5f,
  0x70, 0x72, 0x65, 0x66, 0x69, 0x78, 0x5f, 0x2f, 0x65, 0x6e, 0x63, 0x6f,
  0x64, 0x65, 0x72, 0x2f, 0x65, 0x6e, 0x63, 0x6f, 0x64, 0x65, 0x72, 0x2e,
  0x35, 0x2f, 0x52, 0x65, 0x6c, 0x75, 0x3b, 0x41, 0x64, 0x64, 0x5f, 0x31,
  0x3b, 0x63, 0x6f, 0x6e, 0x76, 0x6f, 0x6c, 0x75, 0x74, 0x69, 0x6f, 0x6e,
  0x5f, 0x31, 0x2f, 0x53, 0x71, 0x75, 0x65, 0x65, 0x7a, 0x65, 0x3b, 0x43,
  0x6f, 0x6e, 0x73, 0x74, 0x5f, 0x34, 0x3b, 0x63, 0x6f, 0x6e, 0x76, 0x6f,
  0x6c, 0x75, 0x74, 0x69, 0x6f, 0x6e, 0x5f, 0x32, 0x3b, 0x63, 0x6f, 0x6e,
  0x76, 0x6f, 0x6c, 0x75, 0x74, 0x69, 0x6f, 0x6e, 0x5f, 0x31, 0x00, 0x00,
  0x04, 0x00, 0x00, 0x00, 0x01, 0x00, 0x00, 0x00, 0x01, 0x00, 0x00, 0x00,
  0x19, 0x00, 0x00, 0x00, 0x08, 0x00, 0x00, 0x00, 0xf2, 0xf8, 0xff, 0xff,
  0x00, 0x00, 0x00, 0x01, 0x14, 0x00, 0x00, 0x00, 0x24, 0x00, 0x00, 0x00,
  0x24, 0x00, 0x00, 0x00, 0x18, 0x00, 0x00, 0x00, 0x3c, 0x00, 0x00, 0x00,
  0x04, 0x00, 0x00, 0x00, 0xff, 0xff, 0xff, 0xff, 0x01, 0x00, 0x00, 0x00,
  0x1b, 0x00, 0x00, 0x00, 0x08, 0x00, 0x00, 0x00, 0xe0, 0xf8, 0xff, 0xff,
  0x18, 0x00, 0x00, 0x00, 0x63, 0x6f, 0x6e, 0x76, 0x6f, 0x6c, 0x75, 0x74,
  0x69, 0x6f, 0x6e, 0x5f, 0x31, 0x2f, 0x45, 0x78, 0x70, 0x61, 0x6e, 0x64,
  0x44, 0x69, 0x6d, 0x73, 0x00, 0x00, 0x00, 0x00, 0x04, 0x00, 0x00, 0x00,
  0x01, 0x00, 0x00, 0x00, 0x01, 0x00, 0x00, 0x00, 0x1b, 0x00, 0x00, 0x00,
  0x08, 0x00, 0x00, 0x00, 0x5a, 0xf9, 0xff, 0xff, 0x00, 0x00, 0x00, 0x01,
  0x14, 0x00, 0x00, 0x00, 0x20, 0x00, 0x00, 0x00, 0x20, 0x00, 0x00, 0x00,
  0x17, 0x00, 0x00, 0x00, 0x28, 0x00, 0x00, 0x00, 0x03, 0x00, 0x00, 0x00,
  0xff, 0xff, 0xff, 0xff, 0x1b, 0x00, 0x00, 0x00, 0x08, 0x00, 0x00, 0x00,
  0x44, 0xf9, 0xff, 0xff, 0x0b, 0x00, 0x00, 0x00, 0x74, 0x72, 0x61, 0x6e,
  0x73, 0x70, 0x6f, 0x73, 0x65, 0x5f, 0x34, 0x00, 0x03, 0x00, 0x00, 0x00,
  0x01, 0x00, 0x00, 0x00, 0x1b, 0x00, 0x00, 0x00, 0x08, 0x00, 0x00, 0x00,
  0xaa, 0xf9, 0xff, 0xff, 0x00, 0x00, 0x00, 0x01, 0x14, 0x00, 0x00, 0x00,
  0x20, 0x00, 0x00, 0x00, 0x20, 0x00, 0x00, 0x00, 0x16, 0x00, 0x00, 0x00,
  0x24, 0x00, 0x00, 0x00, 0x03, 0x00, 0x00, 0x00, 0xff, 0xff, 0xff, 0xff,
  0x08, 0x00, 0x00, 0x00, 0x1b, 0x00, 0x00, 0x00, 0x94, 0xf9, 0xff, 0xff,
  0x05, 0x00, 0x00, 0x00, 0x50, 0x61, 0x64, 0x5f, 0x31, 0x00, 0x00, 0x00,
  0x03, 0x00, 0x00, 0x00, 0x01, 0x00, 0x00, 0x00, 0x08, 0x00, 0x00, 0x00,
  0x1b, 0x00, 0x00, 0x00, 0xf6, 0xf9, 0xff, 0xff, 0x00, 0x00, 0x00, 0x01,
  0x14, 0x00, 0x00, 0x00, 0x20, 0x00, 0x00, 0x00, 0x20, 0x00, 0x00, 0x00,
  0x15, 0x00, 0x00, 0x00, 0x28, 0x00, 0x00, 0x00, 0x03, 0x00, 0x00, 0x00,
  0xff, 0xff, 0xff, 0xff, 0x08, 0x00, 0x00, 0x00, 0x19, 0x00, 0x00, 0x00,
  0xe0, 0xf9, 0xff, 0xff, 0x0b, 0x00, 0x00, 0x00, 0x74, 0x72, 0x61, 0x6e,
  0x73, 0x70, 0x6f, 0x73, 0x65, 0x5f, 0x32, 0x00, 0x03, 0x00, 0x00, 0x00,
  0x01, 0x00, 0x00, 0x00, 0x08, 0x00, 0x00, 0x00, 0x19, 0x00, 0x00, 0x00,
  0x46, 0xfa, 0xff, 0xff, 0x00, 0x00, 0x00, 0x01, 0x14, 0x00, 0x00, 0x00,
  0x20, 0x00, 0x00, 0x00, 0x20, 0x00, 0x00, 0x00, 0x14, 0x00, 0x00, 0x00,
  0x64, 0x00, 0x00, 0x00, 0x03, 0x00, 0x00, 0x00, 0xff, 0xff, 0xff, 0xff,
  0x19, 0x00, 0x00, 0x00, 0x08, 0x00, 0x00, 0x00, 0x30, 0xfa, 0xff, 0xff,
  0x46, 0x00, 0x00, 0x00, 0x6f, 0x6e, 0x6e, 0x78, 0x5f, 0x74, 0x66, 0x5f,
  0x70, 0x72, 0x65, 0x66, 0x69, 0x78, 0x5f, 0x2f, 0x65, 0x6e, 0x63, 0x6f,
  0x64, 0x65, 0x72, 0x2f, 0x65, 0x6e, 0x63, 0x6f, 0x64, 0x65, 0x72, 0x2e,
  0x32, 0x2f, 0x52, 0x65, 0x6c, 0x75, 0x3b, 0x41, 0x64, 0x64, 0x3b, 0x63,
  0x6f, 0x6e, 0x76, 0x6f, 0x6c, 0x75, 0x74, 0x69, 0x6f, 0x6e, 0x2f, 0x53,
  0x71, 0x75, 0x65, 0x65, 0x7a, 0x65, 0x3b, 0x43, 0x6f, 0x6e, 0x73, 0x74,
  0x5f, 0x36, 0x00, 0x00, 0x03, 0x00, 0x00, 0x00, 0x01, 0x00, 0x00, 0x00,
  0x19, 0x00, 0x00, 0x00, 0x08, 0x00, 0x00, 0x00, 0xd2, 0xfa, 0xff, 0xff,
  0x00, 0x00, 0x00, 0x01, 0x14, 0x00, 0x00, 0x00, 0x24, 0x00, 0x00, 0x00,
  0x24, 0x00, 0x00, 0x00, 0x13, 0x00, 0x00, 0x00, 0x84, 0x00, 0x00, 0x00,
  0x04, 0x00, 0x00, 0x00, 0xff, 0xff, 0xff, 0xff, 0x01, 0x00, 0x00, 0x00,
  0x19, 0x00, 0x00, 0x00, 0x08, 0x00, 0x00, 0x00, 0xc0, 0xfa, 0xff, 0xff,
  0x60, 0x00, 0x00, 0x00, 0x6f, 0x6e, 0x6e, 0x78, 0x5f, 0x74, 0x66, 0x5f,
  0x70, 0x72, 0x65, 0x66, 0x69, 0x78, 0x5f, 0x2f, 0x65, 0x6e, 0x63, 0x6f,
  0x64, 0x65, 0x72, 0x2f, 0x65, 0x6e, 0x63, 0x6f, 0x64, 0x65, 0x72, 0x2e,
  0x32, 0x2f, 0x52, 0x65, 0x6c, 0x75, 0x3b, 0x41, 0x64, 0x64, 0x3b, 0x63,
  0x6f, 0x6e, 0x76, 0x6f, 0x6c, 0x75, 0x74, 0x69, 0x6f, 0x6e, 0x2f, 0x53,
  0x71, 0x75, 0x65, 0x65, 0x7a, 0x65, 0x3b, 0x43, 0x6f, 0x6e, 0x73, 0x74,
  0x5f, 0x36, 0x3b, 0x63, 0x6f, 0x6e, 0x76, 0x6f, 0x6c, 0x75, 0x74, 0x69,
  0x6f, 0x6e, 0x5f, 0x32, 0x3b, 0x63, 0x6f, 0x6e, 0x76, 0x6f, 0x6c, 0x75,
  0x74, 0x69, 0x6f, 0x6e, 0x00, 0x00, 0x00, 0x00, 0x04, 0x00, 0x00, 0x00,
  0x01, 0x00, 0x00, 0x00, 0x01, 0x00, 0x00, 0x00, 0x19, 0x00, 0x00, 0x00,
  0x08, 0x00, 0x00, 0x00, 0x82, 0xfb, 0xff, 0xff, 0x00, 0x00, 0x00, 0x01,
  0x14, 0x00, 0x00, 0x00, 0x24, 0x00, 0x00, 0x00, 0x24, 0x00, 0x00, 0x00,
  0x12, 0x00, 0x00, 0x00, 0x38, 0x00, 0x00, 0x00, 0x04, 0x00, 0x00, 0x00,
  0xff, 0xff, 0xff, 0xff, 0x01, 0x00, 0x00, 0x00, 0x34, 0x00, 0x00, 0x00,
  0x03, 0x00, 0x00, 0x00, 0x70, 0xfb, 0xff, 0xff, 0x16, 0x00, 0x00, 0x00,
  0x63, 0x6f, 0x6e, 0x76, 0x6f, 0x6c, 0x75, 0x74, 0x69, 0x6f, 0x6e, 0x2f,
  0x45, 0x78, 0x70, 0x61, 0x6e, 0x64, 0x44, 0x69, 0x6d, 0x73, 0x00, 0x00,
  0x04, 0x00, 0x00, 0x00, 0x01, 0x00, 0x00, 0x00, 0x01, 0x00, 0x00, 0x00,
  0x34, 0x00, 0x00, 0x00, 0x03, 0x00, 0x00, 0x00, 0xe6, 0xfb, 0xff, 0xff,
  0x00, 0x00, 0x00, 0x01, 0x14, 0x00, 0x00, 0x00, 0x20, 0x00, 0x00, 0x00,
  0x20, 0x00, 0x00, 0x00, 0x11, 0x00, 0x00, 0x00, 0x28, 0x00, 0x00, 0x00,
  0x03, 0x00, 0x00, 0x00, 0xff, 0xff, 0xff, 0xff, 0x34, 0x00, 0x00, 0x00,
  0x03, 0x00, 0x00, 0x00, 0xd0, 0xfb, 0xff, 0xff, 0x0b, 0x00, 0x00, 0x00,
  0x74, 0x72, 0x61, 0x6e, 0x73, 0x70, 0x6f, 0x73, 0x65, 0x5f, 0x31, 0x00,
  0x03, 0x00, 0x00, 0x00, 0x01, 0x00, 0x00, 0x00, 0x34, 0x00, 0x00, 0x00,
  0x03, 0x00, 0x00, 0x00, 0x36, 0xfc, 0xff, 0xff, 0x00, 0x00, 0x00, 0x01,
  0x14, 0x00, 0x00, 0x00, 0x20, 0x00, 0x00, 0x00, 0x20, 0x00, 0x00, 0x00,
  0x10, 0x00, 0x00, 0x00, 0x20, 0x00, 0x00, 0x00, 0x03, 0x00, 0x00, 0x00,
  0xff, 0xff, 0xff, 0xff, 0x03, 0x00, 0x00, 0x00, 0x34, 0x00, 0x00, 0x00,
  0x20, 0xfc, 0xff, 0xff, 0x03, 0x00, 0x00, 0x00, 0x50, 0x61, 0x64, 0x00,
  0x03, 0x00, 0x00, 0x00, 0x01, 0x00, 0x00, 0x00, 0x03, 0x00, 0x00, 0x00,
  0x34, 0x00, 0x00, 0x00, 0xc6, 0xfc, 0xff, 0xff, 0x00, 0x00, 0x00, 0x01,
  0x10, 0x00, 0x00, 0x00, 0x10, 0x00, 0x00, 0x00, 0x0f, 0x00, 0x00, 0x00,
  0x14, 0x00, 0x00, 0x00, 0x54, 0xfc, 0xff, 0xff, 0x06, 0x00, 0x00, 0x00,
  0x4d, 0x61, 0x74, 0x4d, 0x75, 0x6c, 0x00, 0x00, 0x02, 0x00, 0x00, 0x00,
  0x03, 0x00, 0x00, 0x00, 0x08, 0x00, 0x00, 0x00, 0xb6, 0xfd, 0xff, 0xff,
  0x00, 0x00, 0x00, 0x01, 0x14, 0x00, 0x00, 0x00, 0x14, 0x00, 0x00, 0x00,
  0x0e, 0x00, 0x00, 0x00, 0x00, 0x00, 0x00, 0x02, 0x1c, 0x00, 0x00, 0x00,
  0x8c, 0xfc, 0xff, 0xff, 0x0d, 0x00, 0x00, 0x00, 0x66, 0x6c, 0x61, 0x74,
  0x74, 0x65, 0x6e, 0x2f, 0x43, 0x6f, 0x6e, 0x73, 0x74, 0x00, 0x00, 0x00,
  0x01, 0x00, 0x00, 0x00, 0x02, 0x00, 0x00, 0x00, 0xf2, 0xfd, 0xff, 0xff,
  0x00, 0x00, 0x00, 0x01, 0x14, 0x00, 0x00, 0x00, 0x14, 0x00, 0x00, 0x00,
  0x0d, 0x00, 0x00, 0x00, 0x00, 0x00, 0x00, 0x02, 0x28, 0x00, 0x00, 0x00,
  0xc8, 0xfc, 0xff, 0xff, 0x1a, 0x00, 0x00, 0x00, 0x63, 0x6f, 0x6e, 0x76,
  0x6f, 0x6c, 0x75, 0x74, 0x69, 0x6f, 0x6e, 0x2f, 0x45, 0x78, 0x70, 0x61,
  0x6e, 0x64, 0x44, 0x69, 0x6d, 0x73, 0x2f, 0x64, 0x69, 0x6d, 0x00, 0x00,
  0x00, 0x00, 0x00, 0x00, 0x36, 0xfe, 0xff, 0xff, 0x00, 0x00, 0x00, 0x01,
  0x14, 0x00, 0x00, 0x00, 0x14, 0x00, 0x00, 0x00, 0x0c, 0x00, 0x00, 0x00,
  0x00, 0x00, 0x00, 0x02, 0x14, 0x00, 0x00, 0x00, 0x0c, 0xfd, 0xff, 0xff,
  0x06, 0x00, 0x00, 0x00, 0x43, 0x6f, 0x6e, 0x73, 0x74, 0x31, 0x00, 0x00,
  0x02, 0x00, 0x00, 0x00, 0x03, 0x00, 0x00, 0x00, 0x02, 0x00, 0x00, 0x00,
  0x6e, 0xfe, 0xff, 0xff, 0x00, 0x00, 0x00, 0x01, 0x14, 0x00, 0x00, 0x00,
  0x14, 0x00, 0x00, 0x00, 0x0b, 0x00, 0x00, 0x00, 0x00, 0x00, 0x00, 0x02,
  0x3c, 0x00, 0x00, 0x00, 0x44, 0xfd, 0xff, 0xff, 0x2c, 0x00, 0x00, 0x00,
  0x6f, 0x6e, 0x6e, 0x78, 0x5f, 0x74, 0x66, 0x5f, 0x70, 0x72, 0x65, 0x66,
  0x69, 0x78, 0x5f, 0x2f, 0x52, 0x65, 0x64, 0x75, 0x63, 0x65, 0x4d, 0x65,
  0x61, 0x6e, 0x2f, 0x72, 0x65, 0x64, 0x75, 0x63, 0x74, 0x69, 0x6f, 0x6e,
  0x5f, 0x69, 0x6e, 0x64, 0x69, 0x63, 0x65, 0x73, 0x00, 0x00, 0x00, 0x00,
  0x00, 0x00, 0x00, 0x00, 0x0a, 0xfe, 0xff, 0xff, 0x00, 0x00, 0x00, 0x01,
  0x10, 0x00, 0x00, 0x00, 0x10, 0x00, 0x00, 0x00, 0x0a, 0x00, 0x00, 0x00,
  0x14, 0x00, 0x00, 0x00, 0x98, 0xfd, 0xff, 0xff, 0x05, 0x00, 0x00, 0x00,
  0x43, 0x6f, 0x6e, 0x73, 0x74, 0x00, 0x00, 0x00, 0x01, 0x00, 0x00, 0x00,
  0x03, 0x00, 0x00, 0x00, 0xf6, 0xfe, 0xff, 0xff, 0x00, 0x00, 0x00, 0x01,
  0x14, 0x00, 0x00, 0x00, 0x14, 0x00, 0x00, 0x00, 0x09, 0x00, 0x00, 0x00,
  0x00, 0x00, 0x00, 0x02, 0x20, 0x00, 0x00, 0x00, 0xcc, 0xfd, 0xff, 0xff,
  0x10, 0x00, 0x00, 0x00, 0x74, 0x72, 0x61, 0x6e, 0x73, 0x70, 0x6f, 0x73,
  0x65, 0x5f, 0x31, 0x2f, 0x70, 0x65, 0x72, 0x6d, 0x00, 0x00, 0x00, 0x00,
  0x01, 0x00, 0x00, 0x00, 0x03, 0x00, 0x00, 0x00, 0x7a, 0xfe, 0xff, 0xff,
  0x00, 0x00, 0x00, 0x01, 0x10, 0x00, 0x00, 0x00, 0x10, 0x00, 0x00, 0x00,
  0x08, 0x00, 0x00, 0x00, 0x1c, 0x00, 0x00, 0x00, 0x08, 0xfe, 0xff, 0xff,
  0x0d, 0x00, 0x00, 0x00, 0x63, 0x6f, 0x6e, 0x76, 0x6f, 0x6c, 0x75, 0x74,
  0x69, 0x6f, 0x6e, 0x5f, 0x32, 0x00, 0x00, 0x00, 0x04, 0x00, 0x00, 0x00,
  0x08, 0x00, 0x00, 0x00, 0x01, 0x00, 0x00, 0x00, 0x03, 0x00, 0x00, 0x00,
  0x08, 0x00, 0x00, 0x00, 0xbe, 0xfe, 0xff, 0xff, 0x00, 0x00, 0x00, 0x01,
  0x10, 0x00, 0x00, 0x00, 0x10, 0x00, 0x00, 0x00, 0x07, 0x00, 0x00, 0x00,
  0x1c, 0x00, 0x00, 0x00, 0x4c, 0xfe, 0xff, 0xff, 0x0d, 0x00, 0x00, 0x00,
  0x63, 0x6f, 0x6e, 0x76, 0x6f, 0x6c, 0x75, 0x74, 0x69, 0x6f, 0x6e, 0x5f,
  0x31, 0x00, 0x00, 0x00, 0x04, 0x00, 0x00, 0x00, 0x08, 0x00, 0x00, 0x00,
  0x01, 0x00, 0x00, 0x00, 0x03, 0x00, 0x00, 0x00, 0x08, 0x00, 0x00, 0x00,
  0x02, 0xff, 0xff, 0xff, 0x00, 0x00, 0x00, 0x01, 0x10, 0x00, 0x00, 0x00,
  0x10, 0x00, 0x00, 0x00, 0x06, 0x00, 0x00, 0x00, 0x18, 0x00, 0x00, 0x00,
  0x90, 0xfe, 0xff, 0xff, 0x0b, 0x00, 0x00, 0x00, 0x63, 0x6f, 0x6e, 0x76,
  0x6f, 0x6c, 0x75, 0x74, 0x69, 0x6f, 0x6e, 0x00, 0x04, 0x00, 0x00, 0x00,
  0x08, 0x00, 0x00, 0x00, 0x01, 0x00, 0x00, 0x00, 0x03, 0x00, 0x00, 0x00,
  0x03, 0x00, 0x00, 0x00, 0x00, 0x00, 0x16, 0x00, 0x1c, 0x00, 0x18, 0x00,
  0x17, 0x00, 0x10, 0x00, 0x0c, 0x00, 0x08, 0x00, 0x00, 0x00, 0x00, 0x00,
  0x00, 0x00, 0x07, 0x00, 0x16, 0x00, 0x00, 0x00, 0x00, 0x00, 0x00, 0x01,
  0x14, 0x00, 0x00, 0x00, 0x14, 0x00, 0x00, 0x00, 0x05, 0x00, 0x00, 0x00,
  0x00, 0x00, 0x00, 0x02, 0x24, 0x00, 0x00, 0x00, 0xec, 0xfe, 0xff, 0xff,
  0x15, 0x00, 0x00, 0x00, 0x63, 0x6f, 0x6e, 0x76, 0x6f, 0x6c, 0x75, 0x74,
  0x69, 0x6f, 0x6e, 0x5f, 0x32, 0x2f, 0x53, 0x71, 0x75, 0x65, 0x65, 0x7a,
  0x65, 0x00, 0x00, 0x00, 0x01, 0x00, 0x00, 0x00, 0x03, 0x00, 0x00, 0x00,
  0x9e, 0xff, 0xff, 0xff, 0x00, 0x00, 0x00, 0x01, 0x10, 0x00, 0x00, 0x00,
  0x10, 0x00, 0x00, 0x00, 0x04, 0x00, 0x00, 0x00, 0x14, 0x00, 0x00, 0x00,
  0x2c, 0xff, 0xff, 0xff, 0x07, 0x00, 0x00, 0x00, 0x43, 0x6f, 0x6e, 0x73,
  0x74, 0x5f, 0x32, 0x00, 0x01, 0x00, 0x00, 0x00, 0x08, 0x00, 0x00, 0x00,
  0xce, 0xff, 0xff, 0xff, 0x00, 0x00, 0x00, 0x01, 0x10, 0x00, 0x00, 0x00,
  0x10, 0x00, 0x00, 0x00, 0x03, 0x00, 0x00, 0x00, 0x14, 0x00, 0x00, 0x00,
  0x5c, 0xff, 0xff, 0xff, 0x07, 0x00, 0x00, 0x00, 0x43, 0x6f, 0x6e, 0x73,
  0x74, 0x5f, 0x34, 0x00, 0x01, 0x00, 0x00, 0x00, 0x08, 0x00, 0x00, 0x00,
  0x00, 0x00, 0x16, 0x00, 0x18, 0x00, 0x14, 0x00, 0x00, 0x00, 0x10, 0x00,
  0x0c, 0x00, 0x08, 0x00, 0x00, 0x00, 0x00, 0x00, 0x00, 0x00, 0x07, 0x00,
  0x16, 0x00, 0x00, 0x00, 0x00, 0x00, 0x00, 0x01, 0x10, 0x00, 0x00, 0x00,
  0x10, 0x00, 0x00, 0x00, 0x02, 0x00, 0x00, 0x00, 0x14, 0x00, 0x00, 0x00,
  0xa4, 0xff, 0xff, 0xff, 0x07, 0x00, 0x00, 0x00, 0x43, 0x6f, 0x6e, 0x73,
  0x74, 0x5f, 0x36, 0x00, 0x01, 0x00, 0x00, 0x00, 0x08, 0x00, 0x00, 0x00,
  0x00, 0x00, 0x16, 0x00, 0x1c, 0x00, 0x18, 0x00, 0x00, 0x00, 0x14, 0x00,
  0x10, 0x00, 0x0c, 0x00, 0x00, 0x00, 0x00, 0x00, 0x08, 0x00, 0x07, 0x00,
  0x16, 0x00, 0x00, 0x00, 0x00, 0x00, 0x00, 0x01, 0x14, 0x00, 0x00, 0x00,
  0x24, 0x00, 0x00, 0x00, 0x24, 0x00, 0x00, 0x00, 0x01, 0x00, 0x00, 0x00,
  0x38, 0x00, 0x00, 0x00, 0x03, 0x00, 0x00, 0x00, 0xff, 0xff, 0xff, 0xff,
  0x03, 0x00, 0x00, 0x00, 0x32, 0x00, 0x00, 0x00, 0x04, 0x00, 0x04, 0x00,
  0x04, 0x00, 0x00, 0x00, 0x17, 0x00, 0x00, 0x00, 0x73, 0x65, 0x72, 0x76,
  0x69, 0x6e, 0x67, 0x5f, 0x64, 0x65, 0x66, 0x61, 0x75, 0x6c, 0x74, 0x5f,
  0x69, 0x6e, 0x70, 0x75, 0x74, 0x3a, 0x30, 0x00, 0x03, 0x00, 0x00, 0x00,
  0x01, 0x00, 0x00, 0x00, 0x03, 0x00, 0x00, 0x00, 0x32, 0x00, 0x00, 0x00,
  0x07, 0x00, 0x00, 0x00, 0x70, 0x00, 0x00, 0x00, 0x54, 0x00, 0x00, 0x00,
  0x44, 0x00, 0x00, 0x00, 0x34, 0x00, 0x00, 0x00, 0x24, 0x00, 0x00, 0x00,
  0x14, 0x00, 0x00, 0x00, 0x04, 0x00, 0x00, 0x00, 0xb8, 0xff, 0xff, 0xff,
  0x09, 0x00, 0x00, 0x00, 0x00, 0x00, 0x00, 0x09, 0xc4, 0xff, 0xff, 0xff,
  0x28, 0x00, 0x00, 0x00, 0x00, 0x00, 0x00, 0x28, 0xd0, 0xff, 0xff, 0xff,
  0x16, 0x00, 0x00, 0x00, 0x00, 0x00, 0x00, 0x16, 0xdc, 0xff, 0xff, 0xff,
  0x03, 0x00, 0x00, 0x00, 0x00, 0x00, 0x00, 0x03, 0xe8, 0xff, 0xff, 0xff,
  0x46, 0x00, 0x00, 0x00, 0x00, 0x00, 0x00, 0x46, 0xf4, 0xff, 0xff, 0xff,
  0x27, 0x00, 0x00, 0x00, 0x00, 0x00, 0x00, 0x27, 0x0c, 0x00, 0x0c, 0x00,
  0x0b, 0x00, 0x00, 0x00, 0x00, 0x00, 0x04, 0x00, 0x0c, 0x00, 0x00, 0x00,
  0x22, 0x00, 0x00, 0x00, 0x00, 0x00, 0x00, 0x22
};
const int g_model_len = 7592;
